/**
******************************************************************************
* @file    sine_model_1648676864308_data.c
* @author  AST Embedded Analytics Research Platform
* @date    Wed Mar 30 18:48:21 2022
* @brief   AI Tool Automatic Code Generator for Embedded NN computing
******************************************************************************
* @attention
*
* Copyright (c) 2022 STMicroelectronics.
* All rights reserved.
*
* This software component is licensed by ST under Ultimate Liberty license
* SLA0044, the "License"; You may not use this file except in compliance with
* the License. You may obtain a copy of the License at:
*                             www.st.com/SLA0044
*
******************************************************************************
*/

#include "sine_model_1648676864308_data.h"

ai_handle ai_sine_model_1648676864308_data_weights_get(void)
{
  AI_ALIGNED(32)
  static const ai_u8 s_sine_model_1648676864308_weights[1284] = {
    0x80, 0x5d, 0x0a, 0xbd, 0x56, 0x24, 0x88, 0xbe, 0xe8, 0xd9,
    0x19, 0x3f, 0x7c, 0x03, 0x8a, 0xbe, 0x08, 0x4e, 0x95, 0xbd,
    0x94, 0x90, 0xb1, 0x3e, 0xd1, 0xd4, 0x6e, 0x3e, 0x5f, 0x13,
    0xb1, 0xbe, 0xdb, 0x09, 0x79, 0x3e, 0x4b, 0x4f, 0xb8, 0xbe,
    0xf1, 0x37, 0x17, 0xbf, 0x60, 0x86, 0x41, 0xbd, 0xc6, 0xdf,
    0x60, 0xbe, 0x5b, 0x6b, 0xaa, 0xbe, 0x58, 0x19, 0x04, 0xbe,
    0xe0, 0x79, 0xdf, 0xbe, 0x00, 0x00, 0x00, 0x00, 0x00, 0x00,
    0x00, 0x00, 0x4f, 0x33, 0xf1, 0xbe, 0x00, 0x00, 0x00, 0x00,
    0x00, 0x00, 0x00, 0x00, 0x7e, 0xae, 0x19, 0x3d, 0x13, 0xe6,
    0x1b, 0xbf, 0x00, 0x00, 0x00, 0x00, 0x89, 0xa6, 0xf2, 0x3e,
    0x00, 0x00, 0x00, 0x00, 0x00, 0x00, 0x00, 0x00, 0x00, 0x00,
    0x00, 0x00, 0x00, 0x00, 0x00, 0x00, 0x00, 0x00, 0x00, 0x00,
    0x00, 0x00, 0x00, 0x00, 0x00, 0x00, 0x00, 0x00, 0x92, 0x8b,
    0x15, 0x3e, 0xe0, 0xca, 0x27, 0xbc, 0x60, 0xdc, 0xdb, 0xbe,
    0x3c, 0xe9, 0x8a, 0x3d, 0x64, 0x5c, 0xd6, 0x3d, 0x14, 0x11,
    0xc8, 0x3e, 0xd6, 0x19, 0x4c, 0xbf, 0xf8, 0xde, 0x70, 0x3d,
    0xc2, 0xb8, 0x92, 0x3e, 0x23, 0xa0, 0xb4, 0x3e, 0x85, 0xa1,
    0x9f, 0xbe, 0xbe, 0x49, 0x4a, 0x3e, 0x7f, 0xf2, 0x8b, 0x3e,
    0x71, 0x0f, 0x8f, 0x3e, 0x50, 0xe8, 0x80, 0x3c, 0x93, 0xfe,
    0xc3, 0xbe, 0xcc, 0x96, 0x9c, 0x3d, 0x00, 0x9d, 0x24, 0xbd,
    0x18, 0x1b, 0x8a, 0x3e, 0xc4, 0x33, 0xc8, 0x3d, 0xa0, 0xd8,
    0xb4, 0xbc, 0x4c, 0x66, 0x78, 0x3e, 0x2d, 0xf7, 0xe8, 0xbd,
    0xd8, 0xf9, 0x32, 0xbd, 0x91, 0x2e, 0x77, 0xbd, 0xba, 0xda,
    0x6e, 0x3e, 0x19, 0xf5, 0xb7, 0x3e, 0xca, 0xfb, 0x58, 0x3e,
    0x30, 0x5f, 0x90, 0xbe, 0x12, 0x15, 0x4f, 0x3e, 0xf5, 0x0e,
    0xbc, 0x3e, 0x47, 0x30, 0xcf, 0x3e, 0x93, 0x50, 0xa9, 0x3e,
    0xde, 0xec, 0xc7, 0xbe, 0x1b, 0x85, 0x3f, 0xbe, 0xe9, 0x91,
    0xcf, 0xbe, 0x01, 0xb0, 0x89, 0xbe, 0x6e, 0xd1, 0x25, 0x3e,
    0xae, 0x60, 0xb5, 0xbe, 0xb0, 0xb7, 0x59, 0xbe, 0x74, 0x79,
    0x92, 0xbe, 0x3d, 0xcd, 0x9c, 0xbe, 0xfe, 0x7f, 0x63, 0xbe,
    0x75, 0xfc, 0xd9, 0x3e, 0x86, 0x3e, 0x25, 0xbe, 0x8b, 0x83,
    0xda, 0xbe, 0x5a, 0x3c, 0x75, 0x3e, 0xaa, 0x41, 0x70, 0x3e,
    0x16, 0xcb, 0x2d, 0x3e, 0x06, 0x74, 0x19, 0x3e, 0x4c, 0x6b,
    0x2f, 0xbe, 0x1c, 0xbc, 0x80, 0x3d, 0xb1, 0x58, 0xae, 0x3e,
    0x61, 0x85, 0xc0, 0xbe, 0x6f, 0x49, 0x2a, 0xbf, 0x52, 0xdd,
    0x34, 0x3e, 0x6d, 0x5d, 0xff, 0x3e, 0x77, 0x2a, 0x67, 0xbe,
    0x9b, 0x8e, 0xbc, 0xbe, 0xed, 0x33, 0xd5, 0x3e, 0xf0, 0x96,
    0xd7, 0x3c, 0x0f, 0xf1, 0xa4, 0x3e, 0x8c, 0xa3, 0x8c, 0xbe,
    0x48, 0x4b, 0x29, 0x3d, 0x34, 0x92, 0x99, 0x3d, 0xac, 0xc2,
    0xe6, 0x3d, 0xed, 0x45, 0x34, 0xbf, 0xec, 0xad, 0xb3, 0xbe,
    0x69, 0x40, 0xa0, 0x3e, 0xf0, 0x7f, 0x41, 0xbf, 0xe9, 0x7f,
    0xfc, 0xbe, 0x0d, 0xc8, 0xb5, 0xbe, 0x14, 0x50, 0xcf, 0x3e,
    0x17, 0xad, 0xd6, 0xbe, 0xf6, 0xca, 0x49, 0x3e, 0x8b, 0x58,
    0x8a, 0x3e, 0x34, 0x0b, 0xa8, 0xbe, 0xee, 0x5e, 0x14, 0xbe,
    0x47, 0x88, 0xba, 0x3e, 0x18, 0xa7, 0xc8, 0xbe, 0x91, 0xdf,
    0xbd, 0x3e, 0x3d, 0xe9, 0xd6, 0xbe, 0x5c, 0x9e, 0xe4, 0x3e,
    0xe4, 0xfa, 0xc8, 0xbd, 0xa9, 0x50, 0x87, 0x3e, 0x3c, 0x46,
    0x10, 0x3e, 0xf0, 0xea, 0xbd, 0x3d, 0xe6, 0xf2, 0x8d, 0xbe,
    0xe2, 0xec, 0xcf, 0xbd, 0xb6, 0x9c, 0xc8, 0xbe, 0xa9, 0x0b,
    0xa0, 0xbe, 0xce, 0xed, 0x6e, 0x3e, 0x78, 0x05, 0x53, 0x3d,
    0xee, 0x1d, 0x16, 0x3e, 0x6c, 0x5e, 0x8f, 0x3d, 0x6f, 0x0e,
    0x8b, 0x3e, 0x70, 0x75, 0x84, 0xbc, 0x8b, 0xdf, 0xb3, 0x3e,
    0x4c, 0xd0, 0xb9, 0x3e, 0x27, 0x88, 0xa5, 0xbe, 0x86, 0x8d,
    0xbc, 0xbe, 0xd8, 0x1b, 0x83, 0x3d, 0x2d, 0xa3, 0x03, 0x3f,
    0xc0, 0xf5, 0xd0, 0xbc, 0xfd, 0x47, 0xd4, 0xbe, 0x1f, 0x50,
    0xba, 0x3e, 0x91, 0x37, 0xc0, 0x3e, 0xb3, 0x35, 0xbe, 0xbe,
    0x8c, 0xfb, 0x94, 0xbd, 0xde, 0x60, 0x93, 0xbe, 0x50, 0xa8,
    0xb9, 0x3c, 0x43, 0x4a, 0xd5, 0x3e, 0x70, 0xc9, 0xc3, 0xbc,
    0xd0, 0x90, 0x5f, 0xbd, 0xc8, 0xfd, 0xc0, 0xbd, 0x12, 0x62,
    0x06, 0xbe, 0x0e, 0xff, 0x0a, 0x3e, 0xe0, 0x95, 0x75, 0xbd,
    0x7e, 0x47, 0x55, 0xbe, 0x09, 0xe6, 0xa2, 0x3e, 0x3e, 0x48,
    0x11, 0xbe, 0x2d, 0x98, 0x93, 0x3e, 0x9e, 0x6c, 0x65, 0x3e,
    0xe6, 0x33, 0x95, 0xbe, 0x62, 0xa4, 0x06, 0x3e, 0xf8, 0x48,
    0x00, 0xbd, 0x08, 0x85, 0x94, 0xbe, 0xcf, 0x19, 0x9f, 0xbe,
    0xbd, 0xd9, 0x8f, 0x3e, 0x24, 0x40, 0xdf, 0x3d, 0x13, 0x40,
    0xcb, 0x3e, 0x6c, 0xc3, 0x6b, 0xbe, 0x92, 0x36, 0x73, 0x3e,
    0x26, 0x24, 0x5a, 0x3e, 0x9a, 0xce, 0x87, 0xbd, 0xe4, 0x9e,
    0xc6, 0x3d, 0x1b, 0x17, 0x4e, 0x3e, 0xa7, 0xc6, 0xa8, 0x3e,
    0x03, 0xe4, 0x43, 0xbe, 0xb0, 0x8e, 0xa8, 0xbd, 0x56, 0x92,
    0x53, 0xbe, 0x77, 0x89, 0xd1, 0x3e, 0x22, 0xac, 0x5c, 0x3e,
    0x32, 0xfd, 0x01, 0x3e, 0x75, 0x2d, 0xac, 0xbe, 0x8e, 0xa5,
    0x11, 0x3e, 0x97, 0x76, 0x03, 0xbf, 0xe5, 0xf8, 0xd3, 0xbe,
    0x58, 0x11, 0x3f, 0xbd, 0xe1, 0x58, 0xa6, 0x3e, 0xd8, 0xb9,
    0x86, 0xbf, 0x12, 0xb5, 0x2e, 0x3e, 0xaa, 0x96, 0xc2, 0x3e,
    0x2e, 0xa7, 0x2f, 0xbe, 0xf5, 0xa3, 0x98, 0x3e, 0x9f, 0x3c,
    0xdc, 0x3e, 0x85, 0x3e, 0xae, 0xbe, 0x86, 0x40, 0x3f, 0x3e,
    0xf8, 0xbc, 0xa3, 0xbe, 0x10, 0xaf, 0xca, 0xbc, 0xee, 0xc0,
    0x4e, 0xbe, 0x0f, 0x0a, 0xa2, 0x3e, 0xaf, 0x6a, 0x86, 0x3e,
    0x8e, 0x57, 0x39, 0xbe, 0x18, 0x6b, 0xdd, 0xbd, 0x6a, 0x8e,
    0xc7, 0xbe, 0xd4, 0x06, 0x2b, 0x3f, 0x32, 0x07, 0x7e, 0x3e,
    0x61, 0xb3, 0x8b, 0x3e, 0x6a, 0x5c, 0x75, 0x3e, 0x6a, 0xf3,
    0x0b, 0xbe, 0xb6, 0x4d, 0x2b, 0x3e, 0x9a, 0xa2, 0x7a, 0x3e,
    0x74, 0x5c, 0xad, 0x3d, 0xca, 0xd3, 0xa2, 0xbe, 0xc2, 0xdd,
    0x2a, 0x3e, 0x28, 0xfe, 0x83, 0xbe, 0xbe, 0x86, 0x41, 0xbe,
    0xa9, 0xd5, 0x8d, 0x3e, 0xef, 0x4d, 0x9c, 0x3e, 0xbe, 0x92,
    0x49, 0x3e, 0x50, 0x41, 0x05, 0xbe, 0x75, 0x53, 0x09, 0x3f,
    0x6f, 0x4e, 0xa7, 0x3e, 0xaf, 0x96, 0x15, 0xbe, 0xe0, 0x09,
    0x51, 0x3d, 0x88, 0xef, 0x03, 0xbd, 0x18, 0x57, 0x22, 0xbe,
    0xa3, 0x19, 0xc9, 0xbe, 0x5f, 0x3f, 0x87, 0x3e, 0xdc, 0x1d,
    0x87, 0xbd, 0x9e, 0xb3, 0x77, 0x3e, 0x28, 0x0b, 0x78, 0xbd,
    0x80, 0x14, 0x8a, 0x3b, 0xda, 0x8b, 0xe8, 0xbe, 0x40, 0xd9,
    0x95, 0xbd, 0x68, 0xe0, 0x38, 0x3d, 0xcb, 0x5e, 0x7d, 0xbf,
    0xe8, 0xec, 0x09, 0xbf, 0x0f, 0xa5, 0xd2, 0x3e, 0x8c, 0x8f,
    0x86, 0x3d, 0xa2, 0x26, 0x8f, 0xbe, 0xf8, 0xfb, 0x64, 0xbd,
    0xd5, 0x7e, 0x45, 0xbe, 0x8a, 0x86, 0x32, 0x3e, 0xf2, 0x2c,
    0x0a, 0xbe, 0x10, 0x78, 0xd4, 0xbe, 0x58, 0x6a, 0x58, 0x3d,
    0xf4, 0x71, 0x1e, 0xbe, 0xa0, 0x52, 0x12, 0x3c, 0x14, 0x5b,
    0x5a, 0x3e, 0xcc, 0xee, 0x03, 0xbe, 0x18, 0x9f, 0x02, 0x3d,
    0xa7, 0x12, 0x1e, 0xbe, 0xa0, 0x76, 0x9a, 0x3c, 0xd0, 0xef,
    0xd1, 0xbc, 0xd6, 0x39, 0xe1, 0x3e, 0x43, 0x6a, 0xb7, 0x3e,
    0xc8, 0x58, 0x8e, 0xbd, 0xc0, 0x56, 0x23, 0x3c, 0x40, 0x3e,
    0xdb, 0x3c, 0x83, 0x9a, 0xc9, 0xbe, 0xd0, 0x76, 0xc7, 0xbc,
    0xce, 0x64, 0x2a, 0x3e, 0x91, 0x72, 0xa2, 0xbe, 0x04, 0x48,
    0x20, 0xbe, 0xa8, 0x65, 0x6d, 0x3d, 0x5b, 0xd8, 0xd6, 0x3e,
    0x50, 0xb3, 0x19, 0x3d, 0x84, 0x47, 0xa3, 0xbe, 0xcc, 0xbc,
    0x8d, 0x3d, 0xde, 0x71, 0xad, 0xbe, 0x16, 0x48, 0x55, 0xbe,
    0x36, 0xad, 0x69, 0x3e, 0x02, 0x06, 0xb3, 0xbe, 0x3c, 0x6b,
    0x2f, 0xbe, 0x10, 0x9b, 0x62, 0xbe, 0x18, 0x84, 0x92, 0xbd,
    0xd0, 0x99, 0x8e, 0x3c, 0x4c, 0x80, 0x21, 0xbe, 0x7a, 0x54,
    0x55, 0x3e, 0x1e, 0xe1, 0x85, 0xbe, 0xe8, 0x20, 0xc7, 0x3e,
    0x59, 0x10, 0xb6, 0x3e, 0xa4, 0x3d, 0x48, 0xbe, 0x2d, 0x26,
    0x85, 0xbd, 0x9a, 0x31, 0x63, 0xbb, 0x5c, 0x92, 0xfb, 0x3d,
    0x43, 0xd2, 0x01, 0xbe, 0x86, 0xd6, 0x64, 0x3e, 0xd6, 0x00,
    0x98, 0xbe, 0x1e, 0x3d, 0x05, 0xbe, 0x74, 0x79, 0x8d, 0xbd,
    0x50, 0xab, 0x40, 0xbe, 0xb7, 0x71, 0x9d, 0xbe, 0x6a, 0x41,
    0x84, 0xbe, 0x10, 0xa4, 0xa3, 0x3e, 0xb9, 0x3d, 0xd1, 0x3d,
    0x00, 0x00, 0x00, 0x00, 0x34, 0xa5, 0xaf, 0x3e, 0x59, 0x0b,
    0x04, 0x3f, 0xcf, 0xba, 0x40, 0xbe, 0x85, 0x2b, 0x17, 0xbf,
    0x00, 0x00, 0x00, 0x00, 0xaa, 0x5c, 0x8c, 0x3c, 0xc9, 0xd3,
    0x96, 0x3e, 0xc4, 0x33, 0xab, 0xbe, 0x33, 0x30, 0xcf, 0xbe,
    0xb8, 0x36, 0x00, 0x3f, 0xfc, 0xaa, 0xee, 0x3c, 0x00, 0x00,
    0x00, 0x00, 0x0d, 0xc8, 0x2a, 0x3e, 0x2c, 0x43, 0xa1, 0x3f,
    0x6b, 0x95, 0xd1, 0xbe, 0xd2, 0xd7, 0x38, 0xbe, 0xf8, 0xfd,
    0x87, 0x3f, 0x67, 0x8b, 0x87, 0xbf, 0x39, 0x0a, 0x69,
    0x3e, 0xd2, 0x08, 0xf0, 0x3f, 0x5a, 0x0b, 0x8c, 0xbe,
    0x38, 0x4f, 0x3f, 0xbe, 0xe1, 0x4e, 0x82, 0x3f, 0x51,
    0xa5, 0x30, 0x3f, 0x67, 0x38, 0x7f, 0x3f, 0xef, 0xff,
    0x7e, 0xbf, 0xcb, 0x37, 0xb6, 0xbe, 0xb8, 0x2a, 0x7d,
    0x3e, 0x0c, 0x07, 0x98, 0xbe, 0xa2, 0xad, 0x93, 0xbe  };
  return AI_HANDLE_PTR(s_sine_model_1648676864308_weights);
}
